memory_initialization_radix = 16;
memory_initialization_vector =
2f53,
adcf,
b088,
30d2,
aa9c,
b099,
b093,
aa81,
3040,
2729,
b08a,
302b,
9311,
3088,
ace5,
b1e1,
b4dd,
b0b0,
2c5e,
adce,
3414,
b077,
a8f4,
2546,
b1e6,
2ecd,
3163,
30a1,
3199,
3346,
255e,
214f,
aa6b,
b17a,
31d9,
ad3e,
2250,
32ce,
3095,
b02c,
2fc3,
32c1,
1dba,
a9db,
3305,
324d,
2c7a,
ad29,
a914,
a8a7,
b383,
19a3,
aee8,
b0ed,
b0ab,
2840,
31c3,
3492,
b1aa,
b1e9,
34bb,
ad8d,
2f0a,
28e7;
